#ifndef SOLAR_FLARE_MODEL_ESP32_H
#define SOLAR_FLARE_MODEL_ESP32_H

/*
 Author: DR 
 CAUTION: This is an auto generated file.
 DO NOT EDIT OR MAKE ANY CHANGES TO it.
 This model data was generated on Sun Nov 10 13:21:38 2024

 Tools used:
 Python: 3.8.8 (default, Apr 13 2021, 15:08:03) [MSC v.1916 64 bit (AMD64)]
 Numpy: 1.20.1
 TensorFlow: 2.3.0
 Keras: 2.4.0

 Model details are:
 NUM_OF_EPOCHS = 100
 BATCH_SIZE    = 16
 DENSE1_SIZE   = 16
 DENSE2_SIZE   = 8
 DENSE3_SIZE   = 4
*/

const int DENSE1_SIZE = 16;
const int DENSE2_SIZE = 8;
const int DENSE3_SIZE = 4;

const unsigned int solar_flare_model_esp32_len = 4288;
alignas(8) const unsigned char solar_flare_model_esp32[] = {
0x28,0x00,0x00,0x00,0x54,0x46,0x4c,0x33,0x00,0x00,0x00,0x00,
0x00,0x00,0x00,0x00,0x00,0x00,0x00,0x00,0x00,0x00,0x12,0x00,
0x1c,0x00,0x04,0x00,0x08,0x00,0x0c,0x00,0x10,0x00,0x14,0x00,
0x00,0x00,0x18,0x00,0x12,0x00,0x00,0x00,0x03,0x00,0x00,0x00,
0x24,0x10,0x00,0x00,0x84,0x04,0x00,0x00,0x6c,0x04,0x00,0x00,
0x3c,0x00,0x00,0x00,0x04,0x00,0x00,0x00,0x01,0x00,0x00,0x00,
0x0c,0x00,0x00,0x00,0x08,0x00,0x0c,0x00,0x04,0x00,0x08,0x00,
0x08,0x00,0x00,0x00,0x08,0x00,0x00,0x00,0x11,0x00,0x00,0x00,
0x13,0x00,0x00,0x00,0x6d,0x69,0x6e,0x5f,0x72,0x75,0x6e,0x74,
0x69,0x6d,0x65,0x5f,0x76,0x65,0x72,0x73,0x69,0x6f,0x6e,0x00,
0x12,0x00,0x00,0x00,0x20,0x04,0x00,0x00,0x0c,0x04,0x00,0x00,
0xb0,0x03,0x00,0x00,0x7c,0x03,0x00,0x00,0x58,0x03,0x00,0x00,
0x34,0x03,0x00,0x00,0x10,0x03,0x00,0x00,0x8c,0x01,0x00,0x00,
0xf8,0x00,0x00,0x00,0xc4,0x00,0x00,0x00,0xa0,0x00,0x00,0x00,
0x94,0x00,0x00,0x00,0x80,0x00,0x00,0x00,0x6c,0x00,0x00,0x00,
0x58,0x00,0x00,0x00,0x44,0x00,0x00,0x00,0x30,0x00,0x00,0x00,
0x04,0x00,0x00,0x00,0x62,0xfb,0xff,0xff,0x04,0x00,0x00,0x00,
0x10,0x00,0x00,0x00,0x31,0x2e,0x35,0x2e,0x30,0x00,0x00,0x00,
0x00,0x00,0x00,0x00,0x00,0x00,0x00,0x00,0x00,0x00,0x00,0x00,
0x00,0x00,0x00,0x00,0x00,0x00,0x00,0x00,0x90,0xf3,0xff,0xff,
0x00,0x00,0x00,0x00,0x00,0x00,0x00,0x00,0x00,0x00,0x00,0x00,
0xa0,0xf3,0xff,0xff,0x00,0x00,0x00,0x00,0x00,0x00,0x00,0x00,
0x00,0x00,0x00,0x00,0xb0,0xf3,0xff,0xff,0x00,0x00,0x00,0x00,
0x00,0x00,0x00,0x00,0x00,0x00,0x00,0x00,0xc0,0xf3,0xff,0xff,
0x00,0x00,0x00,0x00,0x00,0x00,0x00,0x00,0x00,0x00,0x00,0x00,
0xd0,0xf3,0xff,0xff,0x00,0x00,0x00,0x00,0x00,0x00,0x00,0x00,
0x00,0x00,0x00,0x00,0xe0,0xf3,0xff,0xff,0x00,0x00,0x00,0x00,
0xe2,0xfb,0xff,0xff,0x04,0x00,0x00,0x00,0x0c,0x00,0x00,0x00,
0x6f,0x43,0x1d,0xf9,0x86,0xd1,0x17,0xec,0xb7,0xc3,0x81,0x1b,
0x00,0x00,0x00,0x00,0x00,0x00,0x00,0x00,0x02,0xfc,0xff,0xff,
0x04,0x00,0x00,0x00,0x20,0x00,0x00,0x00,0xc6,0xab,0x0f,0xe9,
0xda,0x24,0x36,0x28,0xf0,0xd7,0x9d,0x3f,0xdd,0x12,0x7f,0x46,
0x58,0xcf,0xd4,0x01,0xc5,0x43,0x10,0xff,0x09,0x12,0xef,0xba,
0x1d,0xfe,0xd8,0x02,0x00,0x00,0x00,0x00,0x32,0xfc,0xff,0xff,
0x04,0x00,0x00,0x00,0x80,0x00,0x00,0x00,0xeb,0xfb,0x41,0x20,
0x30,0xf6,0x05,0x0e,0xe1,0xbf,0x26,0x31,0x2d,0xce,0x17,0x3a,
0x3a,0xf9,0x10,0xdd,0xee,0x01,0x18,0x10,0x1c,0x16,0xd7,0x0a,
0x21,0x15,0xbe,0x81,0xfc,0xe8,0x32,0xe5,0x32,0xdb,0xf1,0xe9,
0xcd,0xcf,0x10,0xde,0xe5,0xed,0x0c,0xe6,0x33,0xd8,0xdc,0x25,
0x16,0xd5,0x26,0x30,0xec,0xc1,0xf7,0x24,0xf3,0x2b,0x04,0x25,
0x08,0x12,0xd9,0xee,0xec,0xea,0xed,0xf4,0x06,0xe2,0x18,0xdb,
0xda,0xe8,0x16,0x03,0x25,0xd4,0xce,0x22,0xf4,0x1f,0x49,0x2b,
0xd7,0xda,0xd4,0x24,0x15,0x4f,0x01,0xdd,0x31,0xb0,0xcb,0x14,
0x2c,0xde,0x65,0xe4,0xb6,0x09,0x0c,0x14,0x1a,0x70,0xe9,0x0f,
0x33,0xe4,0xb8,0xe4,0x25,0x0c,0x18,0x35,0xce,0xdb,0xc9,0x10,
0x27,0x48,0x35,0x11,0x00,0x00,0x00,0x00,0xc2,0xfc,0xff,0xff,
0x04,0x00,0x00,0x00,0x70,0x01,0x00,0x00,0xf3,0x0e,0x10,0xd3,
0x03,0x24,0xff,0x3a,0x32,0x36,0x03,0x0a,0xd2,0x27,0xe0,0xf4,
0x06,0xdf,0xfb,0xea,0x12,0x1f,0x29,0x1c,0xf2,0xe6,0xd6,0xe8,
0xd8,0xeb,0xf0,0xee,0xec,0xd2,0x14,0xdd,0xf8,0xf9,0x14,0x23,
0x04,0xee,0x2a,0xdc,0xf0,0x19,0x14,0x1a,0xfa,0xf3,0xe7,0xbb,
0xd3,0xc6,0x19,0x86,0x15,0x15,0x24,0xed,0xe7,0xc1,0x13,0x0f,
0x16,0x01,0xe0,0xee,0x36,0x3a,0x28,0xe5,0x21,0x0a,0xe3,0x17,
0x0a,0xf0,0x18,0x19,0x36,0x0f,0x0b,0x15,0x26,0xde,0x1d,0x1a,
0xef,0x29,0xe6,0xf1,0xf9,0x07,0x04,0x11,0x09,0x13,0x1d,0x3e,
0xf3,0xee,0x1d,0x0e,0xf7,0xf6,0x06,0xfb,0x2d,0xfc,0xef,0x30,
0x08,0xfd,0xcd,0xd7,0xe5,0x1f,0xff,0x06,0xd1,0x24,0xd9,0x16,
0x0b,0xf7,0xf9,0xe4,0x28,0x01,0xff,0x1d,0x2a,0x12,0x04,0x15,
0x17,0xed,0x0f,0x28,0x2f,0xf7,0x5a,0x20,0x04,0x51,0x41,0xfd,
0xee,0x23,0xe3,0xeb,0x0e,0xe3,0xee,0xd6,0x15,0x05,0x0f,0x2b,
0xdb,0xef,0xe5,0x22,0xe9,0x07,0x09,0xe8,0x35,0x08,0xef,0x36,
0x2b,0x25,0x08,0xea,0x07,0x29,0xec,0x00,0x0f,0x2c,0xe4,0xe9,
0x1a,0xcd,0x09,0xcd,0xdb,0x10,0xfa,0x00,0xd0,0xc4,0x05,0x2d,
0xfa,0x0a,0x81,0xf9,0x0f,0xcf,0xaf,0x30,0x17,0x05,0xff,0xfc,
0x00,0xc2,0xf9,0xe1,0x24,0x2d,0x1f,0xf7,0x10,0x25,0xef,0x07,
0xef,0xfe,0x2d,0xbf,0xaf,0xcc,0x14,0x02,0xf5,0x16,0xd8,0xf7,
0xfa,0xd2,0x32,0xcb,0xfa,0x08,0xc6,0xd8,0x19,0xc9,0xcb,0x12,
0x1e,0xf8,0x31,0xee,0x01,0x25,0xf1,0xeb,0xfb,0x36,0xfd,0xf3,
0xf0,0xed,0x0d,0xe0,0x40,0xc7,0xe8,0x23,0x20,0xfe,0xfc,0xe7,
0xf7,0xda,0x21,0x05,0x0a,0xe7,0xdc,0x0b,0x0d,0xe0,0x0e,0x02,
0x63,0x20,0xcb,0x43,0xfe,0x17,0xfd,0xfb,0xed,0xd5,0x2c,0xf1,
0xff,0x2d,0xd2,0xfe,0xed,0xfb,0x04,0xf8,0x10,0xf2,0x21,0x1f,
0xfa,0x2e,0x3d,0x11,0x30,0xc6,0xf1,0x31,0x02,0xe9,0x0e,0x15,
0xfe,0xca,0xe8,0xda,0xf4,0x3c,0xe7,0x04,0xff,0xc5,0xe8,0x20,
0x05,0x1a,0xe6,0xe6,0x23,0x30,0xe8,0x26,0x01,0xea,0x1f,0x09,
0x06,0xc3,0xec,0xf0,0x23,0x0e,0x03,0xf9,0xd7,0xf5,0xfe,0x06,
0x11,0xe2,0xed,0xfb,0xfb,0x13,0x0f,0x26,0x2e,0xff,0x16,0xfa,
0xd7,0x2c,0xd4,0xcc,0x00,0x00,0x00,0x00,0x42,0xfe,0xff,0xff,
0x04,0x00,0x00,0x00,0x08,0x00,0x00,0x00,0xff,0xff,0xff,0xff,
0x17,0x00,0x00,0x00,0x00,0x00,0x00,0x00,0x00,0x00,0x00,0x00,
0x00,0x00,0x00,0x00,0x62,0xfe,0xff,0xff,0x04,0x00,0x00,0x00,
0x0c,0x00,0x00,0x00,0xde,0xfe,0xff,0xff,0xb7,0x01,0x00,0x00,
0x6d,0xff,0xff,0xff,0x00,0x00,0x00,0x00,0x00,0x00,0x00,0x00,
0x82,0xfe,0xff,0xff,0x04,0x00,0x00,0x00,0x10,0x00,0x00,0x00,
0x26,0x03,0x00,0x00,0x1b,0x00,0x00,0x00,0xb1,0x03,0x00,0x00,
0x6e,0xfb,0xff,0xff,0x00,0x00,0x00,0x00,0xa2,0xfe,0xff,0xff,
0x04,0x00,0x00,0x00,0x20,0x00,0x00,0x00,0x8e,0x06,0x00,0x00,
0xd4,0x00,0x00,0x00,0x06,0x00,0x00,0x00,0x3b,0x01,0x00,0x00,
0x00,0x00,0x00,0x00,0x06,0x04,0x00,0x00,0x82,0x07,0x00,0x00,
0x2c,0x02,0x00,0x00,0x00,0x00,0x00,0x00,0xd2,0xfe,0xff,0xff,
0x04,0x00,0x00,0x00,0x40,0x00,0x00,0x00,0xc3,0x02,0x00,0x00,
0xce,0xfa,0xff,0xff,0xff,0x01,0x00,0x00,0x5c,0x05,0x00,0x00,
0x59,0x09,0x00,0x00,0x0f,0xf9,0xff,0xff,0x68,0x06,0x00,0x00,
0x1b,0x02,0x00,0x00,0x95,0xfd,0xff,0xff,0x71,0x04,0x00,0x00,
0x83,0xfc,0xff,0xff,0xcb,0x03,0x00,0x00,0x4c,0x04,0x00,0x00,
0xc3,0x03,0x00,0x00,0x74,0x01,0x00,0x00,0x10,0x08,0x00,0x00,
0x00,0x00,0x00,0x00,0x00,0x00,0x00,0x00,0x00,0x00,0x00,0x00,
0x30,0xf7,0xff,0xff,0x00,0x00,0x00,0x00,0x00,0x00,0x00,0x00,
0x00,0x00,0x00,0x00,0x40,0xf7,0xff,0xff,0x00,0x00,0x00,0x00,
0x0f,0x00,0x00,0x00,0x4d,0x4c,0x49,0x52,0x20,0x43,0x6f,0x6e,
0x76,0x65,0x72,0x74,0x65,0x64,0x2e,0x00,0x01,0x00,0x00,0x00,
0x14,0x00,0x00,0x00,0x00,0x00,0x0e,0x00,0x18,0x00,0x04,0x00,
0x08,0x00,0x0c,0x00,0x10,0x00,0x14,0x00,0x0e,0x00,0x00,0x00,
0x00,0x02,0x00,0x00,0xf4,0x01,0x00,0x00,0xe8,0x01,0x00,0x00,
0x14,0x00,0x00,0x00,0x04,0x00,0x00,0x00,0x04,0x00,0x00,0x00,
0x6d,0x61,0x69,0x6e,0x00,0x00,0x00,0x00,0x08,0x00,0x00,0x00,
0xac,0x01,0x00,0x00,0x7c,0x01,0x00,0x00,0x34,0x01,0x00,0x00,
0xe8,0x00,0x00,0x00,0xac,0x00,0x00,0x00,0x74,0x00,0x00,0x00,
0x38,0x00,0x00,0x00,0x04,0x00,0x00,0x00,0x7e,0xfe,0xff,0xff,
0x04,0x00,0x00,0x00,0x10,0x00,0x00,0x00,0x04,0x00,0x00,0x00,
0x01,0x00,0x00,0x00,0x11,0x00,0x00,0x00,0x01,0x00,0x00,0x00,
0x0f,0x00,0x00,0x00,0x00,0x00,0x0e,0x00,0x1a,0x00,0x08,0x00,
0x0c,0x00,0x10,0x00,0x07,0x00,0x14,0x00,0x0e,0x00,0x00,0x00,
0x00,0x00,0x00,0x09,0x02,0x00,0x00,0x00,0x24,0x00,0x00,0x00,
0x18,0x00,0x00,0x00,0x0c,0x00,0x00,0x00,0x00,0x00,0x06,0x00,
0x08,0x00,0x04,0x00,0x06,0x00,0x00,0x00,0x00,0x00,0x80,0x3f,
0x01,0x00,0x00,0x00,0x0f,0x00,0x00,0x00,0x01,0x00,0x00,0x00,
0x0e,0x00,0x00,0x00,0x5a,0xff,0xff,0xff,0x00,0x00,0x00,0x08,
0x01,0x00,0x00,0x00,0x18,0x00,0x00,0x00,0x0c,0x00,0x00,0x00,
0x04,0x00,0x00,0x00,0x3c,0xf8,0xff,0xff,0x01,0x00,0x00,0x00,
0x0e,0x00,0x00,0x00,0x03,0x00,0x00,0x00,0x0d,0x00,0x00,0x00,
0x09,0x00,0x00,0x00,0x04,0x00,0x00,0x00,0x8e,0xff,0xff,0xff,
0x00,0x00,0x00,0x08,0x01,0x00,0x00,0x00,0x1c,0x00,0x00,0x00,
0x10,0x00,0x00,0x00,0x04,0x00,0x00,0x00,0x1a,0xf5,0xff,0xff,
0x00,0x00,0x00,0x01,0x01,0x00,0x00,0x00,0x0d,0x00,0x00,0x00,
0x03,0x00,0x00,0x00,0x0c,0x00,0x00,0x00,0x08,0x00,0x00,0x00,
0x03,0x00,0x00,0x00,0xc6,0xff,0xff,0xff,0x00,0x00,0x00,0x08,
0x01,0x00,0x00,0x00,0x1c,0x00,0x00,0x00,0x10,0x00,0x00,0x00,
0x04,0x00,0x00,0x00,0x52,0xf5,0xff,0xff,0x00,0x00,0x00,0x01,
0x01,0x00,0x00,0x00,0x0c,0x00,0x00,0x00,0x03,0x00,0x00,0x00,
0x0b,0x00,0x00,0x00,0x07,0x00,0x00,0x00,0x02,0x00,0x00,0x00,
0x00,0x00,0x0e,0x00,0x18,0x00,0x08,0x00,0x0c,0x00,0x10,0x00,
0x07,0x00,0x14,0x00,0x0e,0x00,0x00,0x00,0x00,0x00,0x00,0x08,
0x01,0x00,0x00,0x00,0x1c,0x00,0x00,0x00,0x10,0x00,0x00,0x00,
0x04,0x00,0x00,0x00,0x9a,0xf5,0xff,0xff,0x00,0x00,0x00,0x01,
0x01,0x00,0x00,0x00,0x0b,0x00,0x00,0x00,0x03,0x00,0x00,0x00,
0x0a,0x00,0x00,0x00,0x06,0x00,0x00,0x00,0x01,0x00,0x00,0x00,
0x00,0x00,0x0a,0x00,0x0c,0x00,0x00,0x00,0x04,0x00,0x08,0x00,
0x0a,0x00,0x00,0x00,0x10,0x00,0x00,0x00,0x04,0x00,0x00,0x00,
0x01,0x00,0x00,0x00,0x0a,0x00,0x00,0x00,0x02,0x00,0x00,0x00,
0x00,0x00,0x00,0x00,0x05,0x00,0x00,0x00,0x00,0x00,0x0a,0x00,
0x10,0x00,0x04,0x00,0x08,0x00,0x0c,0x00,0x0a,0x00,0x00,0x00,
0x03,0x00,0x00,0x00,0x10,0x00,0x00,0x00,0x04,0x00,0x00,0x00,
0x01,0x00,0x00,0x00,0x00,0x00,0x00,0x00,0x01,0x00,0x00,0x00,
0x10,0x00,0x00,0x00,0x01,0x00,0x00,0x00,0x11,0x00,0x00,0x00,
0x01,0x00,0x00,0x00,0x10,0x00,0x00,0x00,0x12,0x00,0x00,0x00,
0xe4,0x08,0x00,0x00,0x40,0x08,0x00,0x00,0xb0,0x07,0x00,0x00,
0x2c,0x07,0x00,0x00,0xa8,0x06,0x00,0x00,0x58,0x06,0x00,0x00,
0xd0,0x05,0x00,0x00,0x4c,0x05,0x00,0x00,0xc8,0x04,0x00,0x00,
0x44,0x04,0x00,0x00,0xb0,0x03,0x00,0x00,0xfc,0x02,0x00,0x00,
0x48,0x02,0x00,0x00,0x94,0x01,0x00,0x00,0x00,0x01,0x00,0x00,
0x94,0x00,0x00,0x00,0x54,0x00,0x00,0x00,0x04,0x00,0x00,0x00,
0xc8,0xff,0xff,0xff,0x28,0x00,0x00,0x00,0x14,0x00,0x00,0x00,
0x04,0x00,0x00,0x00,0x02,0x00,0x00,0x00,0xff,0xff,0xff,0xff,
0x03,0x00,0x00,0x00,0x08,0x00,0x00,0x00,0x49,0x64,0x65,0x6e,
0x74,0x69,0x74,0x79,0x00,0x00,0x00,0x00,0x02,0x00,0x00,0x00,
0x01,0x00,0x00,0x00,0x03,0x00,0x00,0x00,0x14,0x00,0x10,0x00,
0x04,0x00,0x00,0x00,0x00,0x00,0x08,0x00,0x00,0x00,0x00,0x00,
0x00,0x00,0x0c,0x00,0x14,0x00,0x00,0x00,0x2c,0x00,0x00,0x00,
0x14,0x00,0x00,0x00,0x04,0x00,0x00,0x00,0x02,0x00,0x00,0x00,
0xff,0xff,0xff,0xff,0x17,0x00,0x00,0x00,0x0f,0x00,0x00,0x00,
0x66,0x6c,0x61,0x74,0x74,0x65,0x6e,0x5f,0x34,0x5f,0x69,0x6e,
0x70,0x75,0x74,0x00,0x02,0x00,0x00,0x00,0x01,0x00,0x00,0x00,
0x17,0x00,0x00,0x00,0x00,0xf8,0xff,0xff,0x00,0x00,0x00,0x09,
0x54,0x00,0x00,0x00,0x10,0x00,0x00,0x00,0x38,0x00,0x00,0x00,
0x14,0x00,0x00,0x00,0x04,0x00,0x00,0x00,0x02,0x00,0x00,0x00,
0xff,0xff,0xff,0xff,0x03,0x00,0x00,0x00,0x9c,0xf8,0xff,0xff,
0x14,0x00,0x00,0x00,0x04,0x00,0x00,0x00,0x01,0x00,0x00,0x00,
0x80,0xff,0xff,0xff,0xff,0xff,0xff,0xff,0x01,0x00,0x00,0x00,
0x00,0x00,0x80,0x3b,0x0d,0x00,0x00,0x00,0x49,0x64,0x65,0x6e,
0x74,0x69,0x74,0x79,0x5f,0x69,0x6e,0x74,0x38,0x00,0x00,0x00,
0x02,0x00,0x00,0x00,0x01,0x00,0x00,0x00,0x03,0x00,0x00,0x00,
0x68,0xf8,0xff,0xff,0x00,0x00,0x00,0x09,0x7c,0x00,0x00,0x00,
0x0f,0x00,0x00,0x00,0x50,0x00,0x00,0x00,0x14,0x00,0x00,0x00,
0x04,0x00,0x00,0x00,0x02,0x00,0x00,0x00,0xff,0xff,0xff,0xff,
0x03,0x00,0x00,0x00,0x54,0xf8,0xff,0xff,0x2c,0x00,0x00,0x00,
0x20,0x00,0x00,0x00,0x14,0x00,0x00,0x00,0x04,0x00,0x00,0x00,
0x01,0x00,0x00,0x00,0x1b,0x00,0x00,0x00,0x00,0x00,0x00,0x00,
0x01,0x00,0x00,0x00,0x01,0x73,0x14,0x3e,0x01,0x00,0x00,0x00,
0x2d,0xd4,0x67,0x41,0x01,0x00,0x00,0x00,0x06,0xd3,0xb3,0xc1,
0x1d,0x00,0x00,0x00,0x73,0x65,0x71,0x75,0x65,0x6e,0x74,0x69,
0x61,0x6c,0x5f,0x34,0x2f,0x64,0x65,0x6e,0x73,0x65,0x5f,0x31,
0x39,0x2f,0x42,0x69,0x61,0x73,0x41,0x64,0x64,0x00,0x00,0x00,
0x02,0x00,0x00,0x00,0x01,0x00,0x00,0x00,0x03,0x00,0x00,0x00,
0xf8,0xf8,0xff,0xff,0x00,0x00,0x00,0x09,0x9c,0x00,0x00,0x00,
0x0e,0x00,0x00,0x00,0x54,0x00,0x00,0x00,0x14,0x00,0x00,0x00,
0x04,0x00,0x00,0x00,0x02,0x00,0x00,0x00,0xff,0xff,0xff,0xff,
0x04,0x00,0x00,0x00,0xe4,0xf8,0xff,0xff,0x30,0x00,0x00,0x00,
0x24,0x00,0x00,0x00,0x18,0x00,0x00,0x00,0x04,0x00,0x00,0x00,
0x01,0x00,0x00,0x00,0x80,0xff,0xff,0xff,0xff,0xff,0xff,0xff,
0x00,0x00,0x00,0x00,0x01,0x00,0x00,0x00,0x1f,0xc7,0xf5,0x3c,
0x01,0x00,0x00,0x00,0x58,0xd1,0xf4,0x40,0x01,0x00,0x00,0x00,
0x00,0x00,0x00,0x00,0x38,0x00,0x00,0x00,0x73,0x65,0x71,0x75,
0x65,0x6e,0x74,0x69,0x61,0x6c,0x5f,0x34,0x2f,0x64,0x65,0x6e,
0x73,0x65,0x5f,0x31,0x38,0x2f,0x52,0x65,0x6c,0x75,0x3b,0x73,
0x65,0x71,0x75,0x65,0x6e,0x74,0x69,0x61,0x6c,0x5f,0x34,0x2f,
0x64,0x65,0x6e,0x73,0x65,0x5f,0x31,0x38,0x2f,0x42,0x69,0x61,
0x73,0x41,0x64,0x64,0x00,0x00,0x00,0x00,0x02,0x00,0x00,0x00,
0x01,0x00,0x00,0x00,0x04,0x00,0x00,0x00,0xa8,0xf9,0xff,0xff,
0x00,0x00,0x00,0x09,0x9c,0x00,0x00,0x00,0x0d,0x00,0x00,0x00,
0x54,0x00,0x00,0x00,0x14,0x00,0x00,0x00,0x04,0x00,0x00,0x00,
0x02,0x00,0x00,0x00,0xff,0xff,0xff,0xff,0x08,0x00,0x00,0x00,
0x94,0xf9,0xff,0xff,0x30,0x00,0x00,0x00,0x24,0x00,0x00,0x00,
0x18,0x00,0x00,0x00,0x04,0x00,0x00,0x00,0x01,0x00,0x00,0x00,
0x80,0xff,0xff,0xff,0xff,0xff,0xff,0xff,0x00,0x00,0x00,0x00,
0x01,0x00,0x00,0x00,0x26,0xa4,0x85,0x3c,0x01,0x00,0x00,0x00,
0x82,0x1e,0x85,0x40,0x01,0x00,0x00,0x00,0x00,0x00,0x00,0x00,
0x38,0x00,0x00,0x00,0x73,0x65,0x71,0x75,0x65,0x6e,0x74,0x69,
0x61,0x6c,0x5f,0x34,0x2f,0x64,0x65,0x6e,0x73,0x65,0x5f,0x31,
0x37,0x2f,0x52,0x65,0x6c,0x75,0x3b,0x73,0x65,0x71,0x75,0x65,
0x6e,0x74,0x69,0x61,0x6c,0x5f,0x34,0x2f,0x64,0x65,0x6e,0x73,
0x65,0x5f,0x31,0x37,0x2f,0x42,0x69,0x61,0x73,0x41,0x64,0x64,
0x00,0x00,0x00,0x00,0x02,0x00,0x00,0x00,0x01,0x00,0x00,0x00,
0x08,0x00,0x00,0x00,0x58,0xfa,0xff,0xff,0x00,0x00,0x00,0x09,
0x9c,0x00,0x00,0x00,0x0c,0x00,0x00,0x00,0x54,0x00,0x00,0x00,
0x14,0x00,0x00,0x00,0x04,0x00,0x00,0x00,0x02,0x00,0x00,0x00,
0xff,0xff,0xff,0xff,0x10,0x00,0x00,0x00,0x44,0xfa,0xff,0xff,
0x30,0x00,0x00,0x00,0x24,0x00,0x00,0x00,0x18,0x00,0x00,0x00,
0x04,0x00,0x00,0x00,0x01,0x00,0x00,0x00,0x80,0xff,0xff,0xff,
0xff,0xff,0xff,0xff,0x00,0x00,0x00,0x00,0x01,0x00,0x00,0x00,
0x63,0xd8,0x37,0x3c,0x01,0x00,0x00,0x00,0x8b,0x20,0x37,0x40,
0x01,0x00,0x00,0x00,0x00,0x00,0x00,0x00,0x38,0x00,0x00,0x00,
0x73,0x65,0x71,0x75,0x65,0x6e,0x74,0x69,0x61,0x6c,0x5f,0x34,
0x2f,0x64,0x65,0x6e,0x73,0x65,0x5f,0x31,0x36,0x2f,0x52,0x65,
0x6c,0x75,0x3b,0x73,0x65,0x71,0x75,0x65,0x6e,0x74,0x69,0x61,
0x6c,0x5f,0x34,0x2f,0x64,0x65,0x6e,0x73,0x65,0x5f,0x31,0x36,
0x2f,0x42,0x69,0x61,0x73,0x41,0x64,0x64,0x00,0x00,0x00,0x00,
0x02,0x00,0x00,0x00,0x01,0x00,0x00,0x00,0x10,0x00,0x00,0x00,
0x08,0xfb,0xff,0xff,0x00,0x00,0x00,0x09,0x7c,0x00,0x00,0x00,
0x0b,0x00,0x00,0x00,0x50,0x00,0x00,0x00,0x14,0x00,0x00,0x00,
0x04,0x00,0x00,0x00,0x02,0x00,0x00,0x00,0xff,0xff,0xff,0xff,
0x17,0x00,0x00,0x00,0xf4,0xfa,0xff,0xff,0x2c,0x00,0x00,0x00,
0x20,0x00,0x00,0x00,0x14,0x00,0x00,0x00,0x04,0x00,0x00,0x00,
0x01,0x00,0x00,0x00,0x80,0xff,0xff,0xff,0xff,0xff,0xff,0xff,
0x01,0x00,0x00,0x00,0x81,0x80,0x00,0x3c,0x01,0x00,0x00,0x00,
0x00,0x00,0x00,0x40,0x01,0x00,0x00,0x00,0x00,0x00,0x00,0x00,
0x1e,0x00,0x00,0x00,0x73,0x65,0x71,0x75,0x65,0x6e,0x74,0x69,
0x61,0x6c,0x5f,0x34,0x2f,0x66,0x6c,0x61,0x74,0x74,0x65,0x6e,
0x5f,0x34,0x2f,0x52,0x65,0x73,0x68,0x61,0x70,0x65,0x00,0x00,
0x02,0x00,0x00,0x00,0x01,0x00,0x00,0x00,0x17,0x00,0x00,0x00,
0x32,0xfc,0xff,0xff,0x00,0x00,0x00,0x09,0x6c,0x00,0x00,0x00,
0x0a,0x00,0x00,0x00,0x40,0x00,0x00,0x00,0x04,0x00,0x00,0x00,
0x74,0xfb,0xff,0xff,0x2c,0x00,0x00,0x00,0x20,0x00,0x00,0x00,
0x14,0x00,0x00,0x00,0x04,0x00,0x00,0x00,0x01,0x00,0x00,0x00,
0x00,0x00,0x00,0x00,0x00,0x00,0x00,0x00,0x01,0x00,0x00,0x00,
0xa6,0x8c,0x8f,0x3c,0x01,0x00,0x00,0x00,0x50,0xc3,0xf8,0x3f,
0x01,0x00,0x00,0x00,0x8d,0x6d,0x0e,0xc0,0x1c,0x00,0x00,0x00,
0x73,0x65,0x71,0x75,0x65,0x6e,0x74,0x69,0x61,0x6c,0x5f,0x34,
0x2f,0x64,0x65,0x6e,0x73,0x65,0x5f,0x31,0x39,0x2f,0x4d,0x61,
0x74,0x4d,0x75,0x6c,0x00,0x00,0x00,0x00,0x02,0x00,0x00,0x00,
0x03,0x00,0x00,0x00,0x04,0x00,0x00,0x00,0xb2,0xfc,0xff,0xff,
0x00,0x00,0x00,0x09,0x6c,0x00,0x00,0x00,0x09,0x00,0x00,0x00,
0x40,0x00,0x00,0x00,0x04,0x00,0x00,0x00,0xf4,0xfb,0xff,0xff,
0x2c,0x00,0x00,0x00,0x20,0x00,0x00,0x00,0x14,0x00,0x00,0x00,
0x04,0x00,0x00,0x00,0x01,0x00,0x00,0x00,0x00,0x00,0x00,0x00,
0x00,0x00,0x00,0x00,0x01,0x00,0x00,0x00,0xc2,0x8d,0x28,0x3c,
0x01,0x00,0x00,0x00,0xa6,0x3c,0xa7,0x3f,0x01,0x00,0x00,0x00,
0x5e,0xfa,0x82,0xbf,0x1c,0x00,0x00,0x00,0x73,0x65,0x71,0x75,
0x65,0x6e,0x74,0x69,0x61,0x6c,0x5f,0x34,0x2f,0x64,0x65,0x6e,
0x73,0x65,0x5f,0x31,0x38,0x2f,0x4d,0x61,0x74,0x4d,0x75,0x6c,
0x00,0x00,0x00,0x00,0x02,0x00,0x00,0x00,0x04,0x00,0x00,0x00,
0x08,0x00,0x00,0x00,0x32,0xfd,0xff,0xff,0x00,0x00,0x00,0x09,
0x6c,0x00,0x00,0x00,0x08,0x00,0x00,0x00,0x40,0x00,0x00,0x00,
0x04,0x00,0x00,0x00,0x74,0xfc,0xff,0xff,0x2c,0x00,0x00,0x00,
0x20,0x00,0x00,0x00,0x14,0x00,0x00,0x00,0x04,0x00,0x00,0x00,
0x01,0x00,0x00,0x00,0x00,0x00,0x00,0x00,0x00,0x00,0x00,0x00,
0x01,0x00,0x00,0x00,0xbb,0x08,0x2f,0x3c,0x01,0x00,0x00,0x00,
0x7b,0xc2,0x99,0x3f,0x01,0x00,0x00,0x00,0xaa,0xaa,0xad,0xbf,
0x1c,0x00,0x00,0x00,0x73,0x65,0x71,0x75,0x65,0x6e,0x74,0x69,
0x61,0x6c,0x5f,0x34,0x2f,0x64,0x65,0x6e,0x73,0x65,0x5f,0x31,
0x37,0x2f,0x4d,0x61,0x74,0x4d,0x75,0x6c,0x00,0x00,0x00,0x00,
0x02,0x00,0x00,0x00,0x08,0x00,0x00,0x00,0x10,0x00,0x00,0x00,
0xb2,0xfd,0xff,0xff,0x00,0x00,0x00,0x09,0x70,0x00,0x00,0x00,
0x07,0x00,0x00,0x00,0x44,0x00,0x00,0x00,0x04,0x00,0x00,0x00,
0xf4,0xfc,0xff,0xff,0x30,0x00,0x00,0x00,0x24,0x00,0x00,0x00,
0x18,0x00,0x00,0x00,0x04,0x00,0x00,0x00,0x01,0x00,0x00,0x00,
0x00,0x00,0x00,0x00,0x00,0x00,0x00,0x00,0x00,0x00,0x00,0x00,
0x01,0x00,0x00,0x00,0x91,0x3e,0x22,0x3c,0x01,0x00,0x00,0x00,
0xa3,0x2b,0x7c,0x3f,0x01,0x00,0x00,0x00,0x14,0xfa,0xa0,0xbf,
0x1c,0x00,0x00,0x00,0x73,0x65,0x71,0x75,0x65,0x6e,0x74,0x69,
0x61,0x6c,0x5f,0x34,0x2f,0x64,0x65,0x6e,0x73,0x65,0x5f,0x31,
0x36,0x2f,0x4d,0x61,0x74,0x4d,0x75,0x6c,0x00,0x00,0x00,0x00,
0x02,0x00,0x00,0x00,0x10,0x00,0x00,0x00,0x17,0x00,0x00,0x00,
0x36,0xfe,0xff,0xff,0x00,0x00,0x00,0x02,0x3c,0x00,0x00,0x00,
0x06,0x00,0x00,0x00,0x10,0x00,0x00,0x00,0x08,0x00,0x00,0x00,
0x04,0x00,0x04,0x00,0x04,0x00,0x00,0x00,0x1c,0x00,0x00,0x00,
0x73,0x65,0x71,0x75,0x65,0x6e,0x74,0x69,0x61,0x6c,0x5f,0x34,
0x2f,0x66,0x6c,0x61,0x74,0x74,0x65,0x6e,0x5f,0x34,0x2f,0x43,
0x6f,0x6e,0x73,0x74,0x00,0x00,0x00,0x00,0x01,0x00,0x00,0x00,
0x02,0x00,0x00,0x00,0x82,0xfe,0xff,0xff,0x00,0x00,0x00,0x02,
0x70,0x00,0x00,0x00,0x05,0x00,0x00,0x00,0x2c,0x00,0x00,0x00,
0x04,0x00,0x00,0x00,0x74,0xfe,0xff,0xff,0x18,0x00,0x00,0x00,
0x04,0x00,0x00,0x00,0x01,0x00,0x00,0x00,0x00,0x00,0x00,0x00,
0x00,0x00,0x00,0x00,0x00,0x00,0x00,0x00,0x01,0x00,0x00,0x00,
0x43,0xd1,0x09,0x3a,0x35,0x00,0x00,0x00,0x73,0x65,0x71,0x75,
0x65,0x6e,0x74,0x69,0x61,0x6c,0x5f,0x34,0x2f,0x64,0x65,0x6e,
0x73,0x65,0x5f,0x31,0x39,0x2f,0x42,0x69,0x61,0x73,0x41,0x64,
0x64,0x2f,0x52,0x65,0x61,0x64,0x56,0x61,0x72,0x69,0x61,0x62,
0x6c,0x65,0x4f,0x70,0x2f,0x72,0x65,0x73,0x6f,0x75,0x72,0x63,
0x65,0x00,0x00,0x00,0x01,0x00,0x00,0x00,0x03,0x00,0x00,0x00,
0x02,0xff,0xff,0xff,0x00,0x00,0x00,0x02,0x70,0x00,0x00,0x00,
0x04,0x00,0x00,0x00,0x2c,0x00,0x00,0x00,0x04,0x00,0x00,0x00,
0xf4,0xfe,0xff,0xff,0x18,0x00,0x00,0x00,0x04,0x00,0x00,0x00,
0x01,0x00,0x00,0x00,0x00,0x00,0x00,0x00,0x00,0x00,0x00,0x00,
0x00,0x00,0x00,0x00,0x01,0x00,0x00,0x00,0x73,0xfb,0x2f,0x39,
0x35,0x00,0x00,0x00,0x73,0x65,0x71,0x75,0x65,0x6e,0x74,0x69,
0x61,0x6c,0x5f,0x34,0x2f,0x64,0x65,0x6e,0x73,0x65,0x5f,0x31,
0x38,0x2f,0x42,0x69,0x61,0x73,0x41,0x64,0x64,0x2f,0x52,0x65,
0x61,0x64,0x56,0x61,0x72,0x69,0x61,0x62,0x6c,0x65,0x4f,0x70,
0x2f,0x72,0x65,0x73,0x6f,0x75,0x72,0x63,0x65,0x00,0x00,0x00,
0x01,0x00,0x00,0x00,0x04,0x00,0x00,0x00,0x82,0xff,0xff,0xff,
0x00,0x00,0x00,0x02,0x6c,0x00,0x00,0x00,0x03,0x00,0x00,0x00,
0x28,0x00,0x00,0x00,0x04,0x00,0x00,0x00,0x74,0xff,0xff,0xff,
0x14,0x00,0x00,0x00,0x04,0x00,0x00,0x00,0x01,0x00,0x00,0x00,
0x00,0x00,0x00,0x00,0x00,0x00,0x00,0x00,0x01,0x00,0x00,0x00,
0x61,0x66,0xfb,0x38,0x35,0x00,0x00,0x00,0x73,0x65,0x71,0x75,
0x65,0x6e,0x74,0x69,0x61,0x6c,0x5f,0x34,0x2f,0x64,0x65,0x6e,
0x73,0x65,0x5f,0x31,0x37,0x2f,0x42,0x69,0x61,0x73,0x41,0x64,
0x64,0x2f,0x52,0x65,0x61,0x64,0x56,0x61,0x72,0x69,0x61,0x62,
0x6c,0x65,0x4f,0x70,0x2f,0x72,0x65,0x73,0x6f,0x75,0x72,0x63,
0x65,0x00,0x00,0x00,0x01,0x00,0x00,0x00,0x08,0x00,0x00,0x00,
0x00,0x00,0x0e,0x00,0x18,0x00,0x08,0x00,0x07,0x00,0x0c,0x00,
0x10,0x00,0x14,0x00,0x0e,0x00,0x00,0x00,0x00,0x00,0x00,0x02,
0x7c,0x00,0x00,0x00,0x02,0x00,0x00,0x00,0x38,0x00,0x00,0x00,
0x10,0x00,0x00,0x00,0x0c,0x00,0x0c,0x00,0x00,0x00,0x00,0x00,
0x04,0x00,0x08,0x00,0x0c,0x00,0x00,0x00,0x18,0x00,0x00,0x00,
0x04,0x00,0x00,0x00,0x01,0x00,0x00,0x00,0x00,0x00,0x00,0x00,
0x00,0x00,0x00,0x00,0x00,0x00,0x00,0x00,0x01,0x00,0x00,0x00,
0x73,0xe1,0xa2,0x38,0x35,0x00,0x00,0x00,0x73,0x65,0x71,0x75,
0x65,0x6e,0x74,0x69,0x61,0x6c,0x5f,0x34,0x2f,0x64,0x65,0x6e,
0x73,0x65,0x5f,0x31,0x36,0x2f,0x42,0x69,0x61,0x73,0x41,0x64,
0x64,0x2f,0x52,0x65,0x61,0x64,0x56,0x61,0x72,0x69,0x61,0x62,
0x6c,0x65,0x4f,0x70,0x2f,0x72,0x65,0x73,0x6f,0x75,0x72,0x63,
0x65,0x00,0x00,0x00,0x01,0x00,0x00,0x00,0x10,0x00,0x00,0x00,
0x14,0x00,0x1c,0x00,0x08,0x00,0x07,0x00,0x0c,0x00,0x10,0x00,
0x14,0x00,0x00,0x00,0x00,0x00,0x18,0x00,0x14,0x00,0x00,0x00,
0x00,0x00,0x00,0x09,0x84,0x00,0x00,0x00,0x01,0x00,0x00,0x00,
0x60,0x00,0x00,0x00,0x20,0x00,0x00,0x00,0x04,0x00,0x00,0x00,
0x02,0x00,0x00,0x00,0xff,0xff,0xff,0xff,0x17,0x00,0x00,0x00,
0x0c,0x00,0x14,0x00,0x04,0x00,0x08,0x00,0x0c,0x00,0x10,0x00,
0x0c,0x00,0x00,0x00,0x30,0x00,0x00,0x00,0x24,0x00,0x00,0x00,
0x18,0x00,0x00,0x00,0x04,0x00,0x00,0x00,0x01,0x00,0x00,0x00,
0x80,0xff,0xff,0xff,0xff,0xff,0xff,0xff,0x00,0x00,0x00,0x00,
0x01,0x00,0x00,0x00,0x81,0x80,0x00,0x3c,0x01,0x00,0x00,0x00,
0x00,0x00,0x00,0x40,0x01,0x00,0x00,0x00,0x00,0x00,0x00,0x00,
0x14,0x00,0x00,0x00,0x66,0x6c,0x61,0x74,0x74,0x65,0x6e,0x5f,
0x34,0x5f,0x69,0x6e,0x70,0x75,0x74,0x5f,0x69,0x6e,0x74,0x38,
0x00,0x00,0x00,0x00,0x02,0x00,0x00,0x00,0x01,0x00,0x00,0x00,
0x17,0x00,0x00,0x00,0x05,0x00,0x00,0x00,0x60,0x00,0x00,0x00,
0x48,0x00,0x00,0x00,0x2c,0x00,0x00,0x00,0x20,0x00,0x00,0x00,
0x10,0x00,0x00,0x00,0x00,0x00,0x0a,0x00,0x0c,0x00,0x07,0x00,
0x00,0x00,0x08,0x00,0x0a,0x00,0x00,0x00,0x00,0x00,0x00,0x06,
0x02,0x00,0x00,0x00,0xd2,0xff,0xff,0xff,0x00,0x00,0x00,0x72,
0xf2,0xff,0xff,0xff,0x00,0x00,0x00,0x19,0x02,0x00,0x00,0x00,
0x00,0x00,0x0a,0x00,0x0e,0x00,0x07,0x00,0x00,0x00,0x08,0x00,
0x0a,0x00,0x00,0x00,0x00,0x00,0x00,0x09,0x04,0x00,0x00,0x00,
0x00,0x00,0x06,0x00,0x08,0x00,0x07,0x00,0x06,0x00,0x00,0x00,
0x00,0x00,0x00,0x16
};

#endif //SOLAR_FLARE_MODEL_ESP32_H